Conv_0_param_0 54.388554 44.034451 43.756592 29.982788 36.562687 69.966911 32.252834 32.146263 23.431446 22.570862 29.578159 30.296646 37.959240 22.152069 23.129166 22.496458 28.914148 36.259571 28.240625 48.806850 27.679108 69.881302 26.760735 34.169880 27.204693 56.739826 32.500427 62.236885 26.667305 25.456551 28.831060 35.601822 
Conv_2_param_0 106.038116 123.946938 165.534592 150.844528 168.370850 135.890686 155.922409 118.347267 85.432091 109.704651 173.310699 153.893829 204.569366 115.161118 136.701233 92.712822 140.461578 132.181534 137.309906 131.522339 111.057755 125.620461 125.284622 125.020203 123.097832 121.186729 106.646370 107.923584 118.544342 115.221161 128.061615 118.503777 
Conv_4_param_0 1117.695435 930.310791 859.294312 1310.578857 954.666992 1025.057739 1442.707397 632.769287 1395.325928 inf 1907.076050 1532.115479 1103.296265 1014.868713 728.526917 2112.303955 1199.801147 inf 1051.899048 1214.781372 1346.508057 1095.501831 1432.147827 1228.717163 830.303284 995.594543 1561.936646 890.595459 803.778931 1475.192261 1156.112915 1143.935059 669.445801 1095.609863 1175.492554 762.391602 1118.732422 inf 1386.983643 1147.788940 inf inf 1198.415161 1353.210205 1097.024902 1302.936157 867.038635 1395.721069 1028.846191 1150.219482 inf 892.762207 885.483887 945.937134 1469.600586 980.284058 1074.664307 1190.026001 943.048950 1403.196899 886.970459 1596.680054 969.449219 1508.026489 
Conv_6_param_0 143.901154 67.703995 42.835648 107.354370 69.519691 82.430298 122.681999 130.259842 51.456558 inf 189.447159 99.766762 70.052818 49.649426 76.849823 507.252594 47.714500 inf 45.841671 57.731125 54.333187 57.906021 98.333755 79.492393 71.811455 60.240974 115.374809 52.466827 74.147194 67.023132 57.931694 51.628017 77.519226 80.849579 58.515823 41.085129 268.972778 inf 74.659096 106.912704 inf inf 162.977203 100.291656 41.878006 128.694916 52.523232 94.577370 139.660141 58.403641 inf 65.992599 50.760605 66.670105 119.818832 67.624916 70.286758 95.680420 70.128281 90.939774 55.626873 112.066994 79.375870 73.839424 
Conv_8_param_0 323.283173 297.374390 289.776764 286.786713 199.914795 247.178391 300.871765 249.403290 274.388824 216.599838 298.031128 268.487396 216.675583 285.996613 282.211456 238.056107 
Conv_9_param_0 1525.380859 2079.772217 1413.053223 1264.968018 1330.516357 1202.954712 1138.657349 2190.787842 2193.258057 1059.308960 1701.124268 1279.179321 1289.706177 977.174927 1118.987549 2052.139648 2337.519043 1345.908447 1804.019287 2111.223389 1448.222656 1129.444946 1931.416626 1929.250977 823.532471 1236.130127 2174.392334 1487.266479 1511.217529 1912.604492 inf 1536.756592 
Conv_11_param_0 52.448074 57.548729 60.951717 51.214241 54.738186 40.050877 57.131615 165.937561 47.067001 101.241364 90.534683 57.707684 43.468597 175.594452 93.155411 103.016571 54.555195 45.587395 75.719704 59.723049 65.511688 68.958160 105.795853 62.994041 59.919910 72.842949 70.539528 57.010666 53.424809 88.957008 inf 92.189941 
Conv_13_param_0 193.922272 177.416382 198.722427 174.014969 203.327728 143.478867 186.002060 206.550262 202.934937 182.188004 237.385651 162.900742 213.725266 233.952911 200.561630 195.055740 
Conv_15_param_0 2747.483643 1637.024658 inf 2290.346680 1554.708618 4218.225098 1970.981934 1767.804810 2002.812378 1453.781982 1548.238892 2338.686035 2725.934570 1843.817383 3117.957520 1758.881104 1564.281494 2859.473633 1802.156860 1471.484985 2144.947021 2055.654541 2113.426025 1823.384155 2043.318848 1555.495728 2045.156860 2500.366211 2106.063477 2209.729736 2491.735107 1423.107544 
Conv_17_param_0 60.359375 49.603024 inf 129.150772 121.457657 208.302338 56.834038 67.830360 43.438595 59.532043 44.931652 66.036697 138.062485 43.591442 45.016418 61.497894 71.303658 91.421661 56.462933 79.039429 58.807003 152.555161 56.479286 58.291328 140.599869 83.894096 62.298203 123.682419 55.751514 56.956894 74.721115 59.752480 
Conv_19_param_0 139.930145 155.895447 192.126694 125.762985 185.747696 238.873734 164.520477 173.838303 186.599869 218.875168 141.893219 184.245453 169.788727 233.411606 158.203995 214.383957 
Conv_21_param_0 3048.768066 2052.593262 1844.968994 1451.644531 3381.270264 1950.921875 2832.733887 5672.489258 2465.265869 1982.968994 2399.605713 3342.407715 1965.894897 2336.262207 2024.848389 2965.918945 3211.611084 1875.146118 1839.837158 1605723881472.000000 1859.734131 11187.586914 2311.621094 2838.763672 2819.935059 2619.939453 2833.192383 3140.978271 3857.952637 1672.616699 inf 2191.370605 
Conv_23_param_0 80.878380 60.582764 62.224194 47.951725 85.848381 68.003792 48.580349 104.102081 119.399948 46.719761 104.902100 82.330673 57.676605 101.994156 54.402714 53.375938 52.732338 40.838531 82.697121 116828200960.000000 49.135635 4109.063965 49.501415 71.698174 118.599541 78.836121 60.620560 49.219845 63.202003 62.583107 inf 73.991661 
Conv_25_param_0 190.031982 167.930923 163.324997 198.734772 135.752655 178.397446 265.930878 225.889801 210.799698 244.726257 141.420502 180.847610 228.763443 167.062424 212.515717 135.240112 
Conv_27_param_0 3350.334717 2523.049316 2190.316895 inf 3166.916504 2541.333252 3377.888916 5726.834473 5950.645508 2689.062744 inf 3059.624756 3284.818848 1871.064453 2946.053955 1840.732544 1596.769775 1648.460449 3356.881104 3416.939697 3720.290039 1915.698730 2834.464600 2885.319092 3623.423096 2158.117432 inf 2356.926514 4286216704.000000 inf 2681.712646 1894.916992 
Conv_29_param_0 49.947811 49.695396 57.420193 inf 48.610653 64.615616 36.625729 409.958344 356.493469 66.230583 inf 221.230835 46.493431 59.446472 51.374752 84.861382 84.826401 101.187271 53.349594 54.963413 45.405178 212.787949 67.356056 63.230003 393.416107 61.923660 inf 59.250858 348852832.000000 inf 103.589386 72.614021 
Conv_31_param_0 138.731628 136.963791 165.587524 141.464722 177.924988 206.579819 244.663300 221.398590 285.123779 262.299042 106.835938 176.580338 122.473778 174.100464 159.083893 139.615387 
Conv_33_param_0 2473.294434 2529.574951 3439.293701 4107.668457 2241.210205 5094.225586 5021.385254 3560.133789 4428.951172 3094.953613 3499.530273 3809.538818 3337.457764 4388.217773 3432.283691 3793.772461 3311.037598 2570.442627 2963.417969 3539.519043 4882.573242 5969.904297 3243.224121 3207.349121 4035.929443 3526.739746 3326.077148 3543.978760 3444.789307 1909.181030 2261.185547 3660.100342 
Conv_35_param_0 92.717865 93.941216 204.144043 83.889755 94.360222 55.952450 330.743988 58.304302 45.143299 67.587685 80.664108 95.850311 111.842857 70.577034 50.959881 57.502789 73.432251 120.524094 131.110779 85.472290 232.236298 65.293999 48.630051 79.565857 104.968292 56.561474 124.899773 92.911873 77.337372 117.012428 83.054153 64.133972 
Conv_37_param_0 290.755463 218.567963 309.299377 310.997040 336.746735 287.087311 310.497253 259.564178 312.311157 308.954651 227.802200 252.632462 294.380127 318.410614 298.003021 319.195343 302.359009 261.611755 237.344620 254.463745 289.380615 198.130844 241.158188 329.941650 292.085846 331.104614 375.504242 231.181198 282.713715 332.761902 358.623352 307.461151 
Conv_38_param_0 inf 2361.605225 849.538574 3054.897705 2185.094482 2650.626709 2198.478271 1662.876709 2762.951660 2574.975586 1758.794800 1586.302979 1348.931396 1578.405518 2151.907471 1635.420654 2262.942871 2008.937744 1642.170410 1127.713257 1887.346069 1520.890015 2090.661133 2490.272217 3195.477051 2214.814697 1354.681396 2116.358398 1281.178955 1666.970337 2342.260498 2753.805420 1422.654175 2271.994629 2327.624268 2613.552979 1283.862061 1357.413208 1830.226074 1868.345215 5029.794434 1641.497925 2260.626221 2281.241455 1258.218994 1193.867920 3077.848877 2697.402588 2229.620361 2323.093018 1711.225708 inf 1385.696899 inf 1026.869629 1591.282104 1732.664429 2393.548340 2965.909424 2560.370605 988.728149 2105.455078 2429.838379 1044.766724 4770.348633 1699.467285 inf 2311.922363 1485.162476 2896.389893 3352.017578 2141.242920 2088.197998 1775.757446 2339.606934 1470.743286 2160.348145 1045.507935 1433.252075 2070.091064 1357.923218 1072.795898 1371.662354 1202.640503 2994.086670 2353.964600 1436.641968 1926.680420 2553.965088 1369.857300 2589.808838 1970.331543 3062.408203 2231.791992 2490.143066 2348.398682 3160.143066 2103.644287 inf 2058.792480 1571.552368 1890.444458 3062.395752 2784.138672 2775.533203 1907.449097 2092.337891 1166.094604 1920.534912 1550.957153 2381.190674 inf 2281.356689 inf 1566.273438 1793.508301 1477.191406 2485.984131 1752.228394 1705.305420 1090.099365 1939.217651 2001.730469 1655.461060 1832.157715 1639.296509 2419.119385 2129.431152 
Conv_40_param_0 inf 129.208710 82.522217 65.113663 100.370026 73.111015 113.880157 71.435524 79.140488 62.231514 100.488258 56.080006 165.740952 75.307854 64.314133 63.851803 106.027397 99.283318 63.679028 104.103203 121.981941 42.019100 107.299271 60.300476 64.169327 68.974846 63.047649 99.982460 157.207031 227.249557 161.685928 138.024200 67.685318 56.512844 224.187668 110.166840 73.783905 57.226807 204.679672 75.356201 142.227020 126.126396 77.152985 78.423470 69.508072 59.172279 106.178093 93.048363 78.136993 64.754189 54.896126 inf 101.664902 inf 68.879059 57.875248 57.398380 262.909149 85.531281 65.214203 80.952950 59.941059 45.638638 63.395325 414.466797 57.532070 inf 110.998260 74.182648 54.028316 41.690388 120.754379 61.761753 92.992195 68.612595 59.747807 50.028988 141.147614 65.317543 53.565796 101.247238 87.805466 74.793983 79.998802 51.022701 111.072792 73.594368 549.098267 60.446957 91.243484 44.442039 112.060707 45.927517 121.579956 79.712967 154.853821 43.371632 54.146084 inf 65.946884 69.633194 562.469788 115.899300 61.275681 57.119968 50.309864 50.907467 120.213135 327.284241 52.717976 143.185898 inf 47.138882 inf 57.350697 99.889557 66.766304 201.856796 89.362541 60.662395 94.156876 57.996017 63.334572 55.685410 77.764946 51.358734 48.514881 107.738190 
Conv_42_param_0 248.347855 289.607269 387.084625 360.667206 344.293091 345.353516 318.991394 407.554504 255.591187 395.758484 342.483795 308.137695 299.763214 431.931549 291.135071 368.573395 265.704987 277.383392 345.168457 251.447662 393.325012 313.937653 371.222290 345.862610 376.537384 267.907074 310.436401 387.561798 373.151184 355.026306 302.520050 243.813782 
Conv_43_param_0 1698.664673 2499.477539 2911.623779 1953.185547 1912.137817 inf 1553.261230 2162.136719 2361.103271 2616.694824 1270.597290 2519.413330 1667.362183 inf 1919.082520 1541.638550 66402115584.000000 1381.625244 1758.914551 1382.085815 1599.655151 2217.537842 1700.990479 2918.585938 2505.679199 2023.444824 2318.326172 3233.877930 2427.809570 1462.366455 1246.470337 1246.943848 2167.500732 1290.362915 3164.463135 2379.516357 3167.061279 2318.503418 2029.049805 1762.153687 1397.432007 1839.265015 1717.161743 1690.047241 1852.435669 1369.499390 2111.689941 1692.041504 inf 1772.009277 2913.890625 1605.140991 1538.370239 3209.820068 1842.690308 2316.647949 1320.645752 1329.035156 1920.356323 2452.414551 2060.842285 2188.063965 1914.033691 2734.150879 2003.084595 inf 1385.923706 1362.291748 1826.907227 2701.559570 1986.987671 14295.627930 inf 3534.735352 4661.817383 1496.875488 1782.043457 3206.057861 1999.177490 inf 4857.446289 2055.933350 2299.679932 2108.577637 1677.717163 1640.011719 2824.507080 3414.919678 1849.374756 inf 2840.236572 1743.333008 1467.413330 1242.892578 2391.319336 inf 1119.264282 1566.514404 2413.090088 1418.735474 3861.289307 1935.068604 1860.892822 2002.619873 1938.824585 1619.758789 inf 2054.209229 1204.063721 2604.774414 2019.156860 1470.947266 inf 1326.770996 2328.345459 786.291565 1979.190674 1576.813477 1385.556763 3118.417480 2307.180664 3528.133057 1468.691772 1565.943726 2040.122192 inf 3652.492676 1109.064453 
Conv_45_param_0 75.478783 125.513588 86.198227 66.155746 109.776848 inf 60.346989 109.540916 82.132332 183.000839 69.991882 82.793373 89.007233 inf 67.939903 112.180565 28331569152.000000 60.446690 49.426785 94.392662 71.493118 83.250809 104.121941 85.994942 307.210938 76.773315 111.478767 564.447388 213.542740 48.085472 105.068535 72.844803 144.190735 66.190941 65.603012 69.422447 741.557312 118.251717 68.387764 63.132343 74.339218 56.065361 89.638405 61.885105 95.789070 59.759014 43.787609 65.583313 inf 59.638214 259.045563 67.393654 79.757812 239.746033 66.987892 144.441391 72.016342 101.087784 76.929375 58.099323 103.462013 140.550095 105.057549 105.728165 60.884068 inf 88.055923 81.236649 86.209320 90.094482 56.188026 6080.119141 inf 82.738914 320.398743 197.625137 48.315079 45.851955 81.155090 inf 45.281940 160.916443 65.889191 82.272377 55.685841 48.692406 74.227211 162.011459 248.176071 inf 85.993675 43.429298 95.778114 82.495850 78.945236 inf 70.003937 79.993553 56.751186 95.400169 426.947418 51.912575 68.159973 119.388016 109.010445 47.921993 inf 44.833160 106.670258 43.616608 185.947632 73.586037 inf 57.676548 83.951851 82.221512 184.504105 64.710777 50.719009 57.849083 45.919430 77.260162 81.803131 79.304649 76.667831 inf 49.452118 60.240253 
Conv_47_param_0 254.993607 305.821136 279.772552 269.960968 260.525452 229.559341 256.444244 208.835526 211.317078 219.411148 323.959869 194.606674 248.429901 321.191956 316.780853 298.826294 232.149551 296.107300 181.897461 199.547745 240.857529 257.979187 223.630661 241.663406 181.068787 309.551575 276.653809 244.821182 250.365128 247.038147 313.501709 268.564697 
Conv_49_param_0 2849.745117 2193.912598 2453.810791 2457.135742 2907.772949 inf 2539.608154 2312.549805 2010.695801 3460.053955 2406.663574 inf 2556.687012 3319.875977 5036.279297 2789.469238 2691.287109 3574.581299 2781.751221 2780.121582 2532.675537 2892.000488 2407.450439 inf 5298.281738 2948.692871 3952.813721 2978.914551 3329.618652 2857.892090 1836.985352 2594.086182 inf inf 3805.644531 2226.381592 2490.475586 inf inf inf inf 3249.159180 inf 2384.016602 4646.955566 3573.544434 2653.121582 1690.479248 3325.328369 3236.205078 2242.014893 2390.777588 161489948246016.000000 7174.113281 2563.228027 2779.615234 2811.915039 2503.859131 3006.054932 2520.333740 2802.945801 inf inf inf 2448.847412 2160.530762 2593.231689 3095.473877 2157.804688 2472.148193 2836.763672 2772.476318 2658.673584 4920.473633 inf 1974.123169 3269.625732 1782.467773 inf 2061.659424 3988.143799 2578.706787 2275.381348 3081.533691 3963.461182 3023.745361 3177.166260 3167.422363 inf 2702.151855 inf inf 3474.669189 4492.000000 3041.845703 2587.815674 2420.922363 inf inf 4158.337891 2396.184814 2388.828857 2477.228027 3750.855225 2649.766846 2917.185791 2365.811279 1799.654907 2202.382324 1963.730225 4237.975586 3274.735596 1898.930786 2273.293457 2704.162109 2400.798828 3226.326904 2319.789795 4190.849121 3113.777832 2112.320068 inf 2471.693848 3446431809536.000000 2397.572021 inf 2926.673828 2727.866699 
Conv_51_param_0 96.205620 103.495605 66.209839 123.479698 77.921738 inf 49.857765 51.658813 138.776474 99.459587 48.793179 inf 69.308571 84.177696 664.278015 82.134346 67.562866 48.588531 57.111309 91.155190 86.682915 132.585434 68.337868 inf 87.844978 144.211395 64.128761 106.996109 104.209763 83.078270 93.663353 38.579792 inf inf 182.167343 54.219494 54.199337 inf inf inf inf 73.488739 inf 83.612320 132.310944 53.109772 65.538704 62.183674 97.761360 210.789078 92.246819 128.355240 18840494800896.000000 867.926453 94.399086 81.973755 47.351322 61.180424 87.311440 56.876789 58.685146 inf inf inf 83.254425 81.987839 70.907295 60.055275 52.014038 90.550270 140.558807 49.747257 71.861717 86.194511 inf 56.404442 54.531807 104.697670 inf 89.409195 58.179752 94.477516 93.907677 56.923679 496.752686 89.266205 106.044968 129.773224 inf 74.550385 inf inf 254.117249 69.878578 94.153732 51.786541 69.704430 inf inf 489.718048 122.336952 49.855000 51.634533 53.760689 98.130333 149.862411 62.399197 46.477745 52.386791 56.994705 45.505898 225.575394 102.293968 158.729340 75.976402 76.127403 89.286156 58.536598 100.261269 45.124268 63.621174 inf 75.370216 147652771840.000000 64.146446 inf 439.938721 106.849617 
Conv_53_param_0 214.452316 254.210526 225.312149 232.611008 200.924835 130.114197 236.839951 215.295532 275.399445 245.964874 233.892227 268.382538 304.058899 173.983902 211.897476 264.842407 178.923462 362.504486 194.812790 210.144989 275.426300 313.449585 280.752747 247.438980 234.735123 163.281082 294.324280 285.224976 260.936798 240.464752 215.428726 250.014282 
Conv_55_param_0 3004.085693 inf 2745.201660 3324.407715 2651.951172 3433.207764 6495.402832 3535.236328 2837.578857 inf 21901185024.000000 2640.187256 3242.762695 3386.771729 3307.919189 3694.614258 inf inf inf inf 2743.366211 2623.570557 2380.971191 3050.589111 inf inf 3194.112549 inf 5413.290527 inf 2958.830078 3630.490479 4442.064941 1777.277466 inf 4474.611816 inf 3631.395264 2468.648926 inf 3748.553955 3216.347900 7140263.500000 2744.426514 3442.162598 inf 3522.561035 inf inf 3378.944580 2997.635254 inf 2366.706299 inf 3074.343506 3498.644043 2660.705811 inf inf 2892.074463 inf 3128.582275 2427.932617 3467.471436 2953.714111 3364.097900 inf 3481.395996 inf inf 4202.473633 inf 3208.088135 inf inf inf 2904.028809 2783.322754 4257.997559 2418.925049 inf 3616.783691 inf 3065.463379 inf 4207.868164 inf 1642.816650 3117.783936 4012.281738 3061.906982 3319.089355 2721.025146 2901.982910 3631.077393 3335.672363 3380.779297 2480.104004 3054.511963 2891.560547 3351.737549 inf inf 2756.617920 4194.175293 inf 2676.184082 2548.192139 2720.417969 3276.767334 2442.790527 6888.632324 2635.045898 2640.458984 4870.207031 inf 2016.534302 inf 5894.187988 3407.088867 inf 3216.878662 3060.978516 3585.235596 2364.319336 3328.363525 inf 2407.039062 
Conv_57_param_0 87.435371 inf 59.476475 120.471382 162.984406 132.490021 584.669678 110.411034 142.708801 inf 5010370048.000000 169.342300 58.488167 76.692734 70.284332 127.597115 inf inf inf inf 86.276627 52.002743 40.898273 59.402428 inf inf 123.642883 inf 166.721893 inf 116.059486 45.779568 51.807594 84.266045 inf 186.126480 inf 78.120895 59.601254 inf 67.937515 38.263889 3788423.250000 107.526917 155.588974 inf 76.143059 inf inf 41.703342 73.955208 inf 161.726593 inf 44.270115 50.549171 56.162952 inf inf 45.257381 inf 53.488922 42.390804 66.293373 57.084332 167.806198 inf 63.028412 inf inf 111.153587 inf 91.939201 inf inf inf 69.713264 74.896339 68.010429 71.258865 inf 52.106995 inf 51.435593 inf 103.532082 inf 47.041168 83.429535 195.106171 58.769321 53.980724 50.282475 53.144291 115.352135 73.062752 98.529915 50.483467 47.840027 70.338402 74.855392 inf inf 63.243477 52.593292 inf 84.150795 109.960625 66.189293 48.159264 87.765152 299.266388 60.761402 83.756340 88.884369 inf 72.175522 inf 408.494446 99.835564 inf 83.209259 52.303493 86.353889 41.378651 132.890015 inf 63.007179 
Conv_59_param_0 222.300980 215.931656 192.802444 215.005341 254.654816 283.897369 337.762054 154.709183 225.928741 264.172577 202.757935 264.984344 238.533279 238.364853 291.664398 241.509354 218.914322 189.860809 249.995453 308.185028 219.498276 154.303726 353.189270 182.595322 155.797989 248.489777 182.796356 256.568726 219.365219 195.399094 202.871155 214.051254 
Conv_61_param_0 inf 2837.305176 4319.040039 3636.948486 6441.889160 4549.393066 3487.196777 5797.078613 3386.197021 3087.864746 inf inf 3314.126953 3176.956055 inf 7710.231934 5198.626953 inf 3719.654541 inf 3376.898438 4171.139160 inf 3341.416504 2811.750000 inf 2824.586914 3584.857422 3180.563477 4335.495117 2856.372070 3039.310791 3578.196045 3132.831787 inf inf 4011.640137 inf inf 4091.319580 inf 2457.937500 inf inf 3713.184082 inf 4540.705566 7662.452148 3593.875977 inf 3404.930664 4094.440918 3202.692139 inf inf inf 4800.832031 inf 4120.000977 3381.939453 inf 2443.109375 inf 5263.203125 inf 4147.195312 3726.961914 inf 3098.883301 3494.877197 inf 4710.860352 3116.193848 9465.282227 4846.753418 4673.593262 4259.084473 3679.861816 4230.384766 3973.739990 3916.159912 3727.895996 3110.272705 inf 2951.080078 inf 2597.579590 inf inf inf 3807.804688 1859.576294 3582.750488 3676.013184 3123.562988 4663.172363 4073.929199 3307.614746 3848.776367 3227.423096 inf 6111.954590 inf 4323.735352 2955.564697 inf 4455.857910 6164.597656 inf 3611.362305 3566.187256 4768.234863 3894.139648 3203.992920 inf inf 2980.868408 3775.625732 4839.002441 inf 2960.228760 4026.779541 inf 6636.477051 inf 4135.690430 3345.985107 6408.392578 
Conv_63_param_0 inf 85.789474 80.621620 71.175217 63.275127 51.982258 56.206005 175.624985 61.248745 80.986252 inf inf 93.759804 216.209549 inf 74.760422 153.295731 inf 54.649261 inf 81.801132 141.396484 inf 65.003937 81.867508 inf 49.725941 61.338196 71.991974 143.256653 50.363205 105.363762 193.529648 127.868919 inf inf 45.868011 inf inf 86.193985 inf 90.070625 inf inf 63.549831 inf 53.882736 542.239197 87.838570 inf 124.145103 58.103951 92.616516 inf inf inf 147.315979 inf 233.446335 98.191086 inf 58.158905 inf 420.731567 inf 84.281891 65.732979 inf 165.001709 52.017700 inf 50.130455 79.392570 760.838196 151.761566 63.443981 127.188187 188.126251 75.675285 80.998970 63.275528 100.376198 147.623474 inf 129.143387 inf 85.821930 inf inf inf 46.151577 57.063789 84.434395 81.837387 155.075974 194.265717 64.701126 57.296104 110.567276 65.555168 inf 799.448181 inf 322.539246 67.345703 inf 123.340286 493.490204 inf 76.029343 56.283123 90.058678 190.395950 85.875359 inf inf 53.146206 208.102280 50.310383 inf 80.623329 80.481964 inf 66.646179 inf 45.115906 113.037102 260.054504 
Conv_65_param_0 173.596390 156.124939 254.929245 241.806305 203.484467 271.064850 199.353714 148.172470 213.015381 204.947906 178.084320 248.931168 178.842880 166.124588 210.451050 182.282135 251.099640 182.328140 202.995621 298.482544 212.740936 239.060974 191.212555 242.097809 183.933121 193.339554 122.729942 272.356537 193.392746 189.575333 155.280655 269.061310 
Conv_67_param_0 7738.820312 inf 4690.429199 5199.542969 4286.762207 6144.588867 inf 5177.000488 inf inf inf inf inf inf 3439.866943 4430.532715 6549.204102 4298.273926 3601.978516 inf 3539.400879 2621.024170 2960.950928 4431.879883 inf 3519.813721 3893.878418 9940.424805 2915.262695 3726.211182 5052.766602 7938.075195 7669.978027 4320.421875 3451.914062 3843.087891 4467.420410 inf 5217.014160 3614.683350 5568.174316 3990.823486 inf 4088.317871 4599.590332 6022.216309 5349.471191 4465.181152 inf 5195.480957 2725.441162 3352.808838 inf 4526.046387 4278.628418 3785.915527 4869.368164 3451.850342 11455.678711 4136.046875 20553266102272.000000 4952.095703 inf inf 3197.089355 3353.495361 4397.793457 5266.939941 3684.193359 4861.413574 inf 4427.201660 7528.382812 inf 4207.426758 6308.225586 inf 4598.715332 6551.907227 5174.587891 5591.942871 inf 3585.906494 3323.522705 9297.112305 6489.562500 4882.649414 4930.328613 3954.749268 3303.612305 5930.608398 inf 4477.124023 4866.933594 inf 4604.417969 4734.684570 4498.027344 6305.748047 5288.182617 3918.811768 inf inf 3272.541016 4960.877930 inf inf 4544.842773 inf 5130.372070 4338.708496 inf inf 4584.194824 3710.610840 4185.499512 10824.432617 5547.654785 5652.727051 2760.787354 5816.430664 8260.832031 4421.208008 4549.900879 inf 5451.490234 4350.596191 inf 
Conv_69_param_0 388.236328 inf 126.111183 92.146454 57.881687 120.911949 inf 108.641045 inf inf inf inf inf inf 77.786354 149.543259 149.136902 118.850952 63.318867 inf 43.998692 48.491367 67.463089 99.871742 inf 61.854912 57.002018 1475.576904 59.877697 75.512268 68.980675 301.297424 86.102852 109.834885 47.794121 83.953804 59.685585 inf 187.804077 57.341408 138.501953 72.008736 inf 185.578598 62.969734 250.748215 90.364410 67.933258 inf 145.052612 71.690079 43.072514 inf 91.696449 96.721489 58.876282 74.429665 72.121758 970.117859 87.317101 177824382976.000000 45.019089 inf inf 55.052338 79.972504 124.728249 57.766087 86.786163 214.831223 inf 68.562050 61.815136 inf 64.760902 68.008789 inf 53.904057 353.576569 84.110107 101.650459 inf 114.918068 93.622925 60.470928 86.029892 77.361633 225.424728 49.788765 57.894924 54.806885 inf 93.308807 69.289757 inf 101.549263 89.644722 87.532005 63.580006 47.721420 143.474762 inf inf 59.303829 70.505676 inf inf 62.428528 inf 100.914169 97.535667 inf inf 87.467865 158.228531 339.409485 273.429047 160.933365 281.698639 66.113693 157.206863 64.556580 110.498550 242.665970 inf 301.121155 51.598408 inf 
Conv_71_param_0 184.129288 333.953278 149.060150 267.679749 155.960526 254.081833 252.724243 115.357544 163.497879 224.315369 195.682129 145.287186 172.383484 131.427963 231.267258 206.894272 204.812973 120.177269 163.936844 321.369049 182.904984 238.047882 211.007996 208.119263 183.333755 236.735031 139.568405 207.674255 264.091339 152.170029 139.333359 193.619339 
Conv_73_param_0 4413.606934 4531.070312 3155.235840 7391.796875 5301.795410 3810.791504 3400.338135 4309.699707 4822.071289 2701.044434 5066.163574 3089.818848 5744.603516 5155.709961 3769.156738 4360.047852 4678.241211 3957.264404 3790.749268 5225.405273 3827.650635 6874.915527 5428.840820 4270.281738 6344.265137 2829.206299 3792.846191 5563.928711 3584.965576 4997.604492 3338.937500 4046.676025 3791.839844 9042.711914 3821.319092 7159.871094 3671.609131 6224.322754 4927.577148 5558.250977 5391.470703 2536.132812 5886.172363 4383.478027 6220.603516 3122.369629 5663.791504 2628.025635 4592.587891 4719.316406 4528.528809 7523.843750 2620.606934 3405.806152 3349.372803 2302.566406 5900.771484 3686.574219 3569.464111 3162.692139 3794.225586 4873.314453 4766.932129 4004.872314 
Conv_75_param_0 58.385704 58.061066 70.874443 71.957802 41.689167 63.035332 51.680511 46.215965 56.325077 43.004784 51.917263 49.338528 58.008801 32.579170 92.470795 46.643497 72.551849 84.237526 43.067036 61.346992 63.424515 59.954189 47.267868 55.570591 49.112293 73.084206 47.233784 59.064945 88.221451 65.745125 89.036865 84.503845 83.281921 63.977989 68.002777 62.192772 81.447899 52.111851 92.761986 125.910599 60.935791 61.984650 133.862305 87.628624 65.021843 59.588078 72.366745 66.387520 48.974804 83.794464 59.089436 69.865631 53.318413 66.038681 51.348976 64.997551 46.531532 40.979233 55.696728 96.918961 61.491226 53.674561 45.944244 55.967758 
Conv_77_param_0 395.768188 394.902405 434.055725 267.991608 322.439301 204.534622 327.781769 333.655090 347.646637 383.764557 365.867676 330.957764 598.324402 261.720398 393.461487 425.723022 
Conv_78_param_0 1649.566162 1171.956299 1385.357422 1756.609253 1309.576416 1075.640991 1294.135742 1528.751831 1109.127319 1543.334106 1693.593018 1418.203613 962.538025 2058.108398 1149.866821 806.447937 1110.420898 1345.986816 1345.784912 1523.977661 1270.493652 994.830200 1475.516113 1417.942017 1485.245605 1233.323242 1284.845947 1004.744629 1039.823730 1102.679688 1282.311157 841.285889 
Conv_80_param_0 inf 1883.047974 inf 1859.488770 2196.061279 inf 879.445496 931.409119 1298.856445 inf inf 1545.890015 inf inf inf 1180.912598 inf 1053.553467 1601.822998 inf inf inf 914.221436 1620.535767 3422.315674 1420.319458 1831.661987 1416.452026 inf inf 2232.583740 inf 
Gemm_89_param_0 1100.353271 1197.219849 
Conv_0 84.330368 
Conv_2 0.000000 
Conv_4 0.000000 
Conv_6 0.000000 
Conv_8 0.000000 
Conv_9 0.000000 
Conv_11 0.000000 
Conv_13 0.000000 
Conv_15 0.000000 
Conv_17 0.000000 
Conv_19 0.000000 
Conv_21 0.000000 
Conv_23 0.000000 
Conv_25 0.000000 
Conv_27 0.000000 
Conv_29 0.000000 
Conv_31 0.000000 
Conv_33 0.000000 
Conv_35 0.000000 
Conv_37 0.000000 
Conv_38 0.000000 
Conv_40 0.000000 
Conv_42 0.000000 
Conv_43 0.000000 
Conv_45 0.000000 
Conv_47 0.000000 
Conv_49 0.000000 
Conv_51 0.000000 
Conv_53 0.000000 
Conv_55 0.000000 
Conv_57 0.000000 
Conv_59 0.000000 
Conv_61 0.000000 
Conv_63 0.000000 
Conv_65 0.000000 
Conv_67 0.000000 
Conv_69 0.000000 
Conv_71 0.000000 
Conv_73 0.000000 
Conv_75 0.000000 
Conv_77 0.000000 
Conv_78 0.000000 
Conv_80 0.000000 
Gemm_89 0.000000 
