Conv_0_param_0 57.412506 55.535381 110.942101 77.767036 52.757458 40.552685 110.851112 68.339195 68.915062 54.838093 71.688614 40.574570 127.972855 53.346561 118.758560 47.514622 44.682198 263.096741 49.719837 54.848782 46.156029 45.371338 78.117058 66.011314 42.915451 75.924858 57.811764 108.110840 67.478264 54.355129 39.774277 54.541836 
Conv_2_param_0 105.112679 152.661148 161.626602 197.308716 181.028763 173.136810 191.730362 161.139771 149.905960 199.290466 217.319641 230.770477 109.486008 167.995865 191.281952 254.769470 249.208542 146.663376 155.690323 202.566025 183.841171 123.901184 164.738159 197.473923 183.598450 176.420929 169.459442 139.360413 157.216248 158.587982 166.744568 181.253342 
Conv_4_param_0 2877.623291 1754.444214 3394.546631 2413.662842 1679.010742 2043.980103 3505.415283 1796.519775 2721.215820 2237.993164 2598.746826 2458.117432 2566.021484 3524.117920 349.066528 2264.475098 947.391052 2703.560059 1402.556763 2292.002930 3188.716553 1699.963135 1681.529053 3252.008545 2844.060547 1022.569580 2599.406250 2648.707764 2228.236328 2283.207520 2838.657471 1940.668457 2345.767822 2241.108887 2711.070312 1418.472412 1387.784424 2063.682129 2549.351318 3362.297119 2435.804443 4521.858398 1497.099121 3443.102051 2681.274170 2414.957764 2866.152588 2254.853516 2056.954346 1038.295776 2466.591553 1103.601318 2308.187012 2888.403076 1056.300903 2790.986572 1270.255737 2057.708496 1655.811646 2819.011475 1107.982544 2122.229248 498.028687 3809.228760 
Conv_6_param_0 15.191638 94.070129 34.637051 30.964338 36.387115 35.029648 10.504230 43.976372 48.176884 46.966724 19.376848 44.755795 19.604910 21.109676 62.646538 24.100079 134.272400 45.978432 159.133698 23.510267 29.409658 82.855148 75.443474 18.507988 62.131279 51.716572 31.676538 65.334511 38.884247 50.677155 14.707382 145.359909 25.213158 32.645386 93.766731 82.591980 46.178112 44.558464 78.681412 18.559650 36.317810 18.903925 60.291519 22.009615 26.390505 156.051636 25.014894 120.631798 44.523281 50.819084 27.190456 38.175335 90.218643 19.990391 46.139458 24.386417 47.149761 59.573338 54.012268 15.872733 54.926811 39.922611 44.564114 37.253780 
Conv_8_param_0 179.947235 308.770508 203.366211 232.606476 284.868011 352.161255 224.611664 327.973480 285.790802 294.764404 330.692810 282.554901 287.715149 298.806061 265.712219 323.184448 
Conv_9_param_0 1806.168457 3774.094727 2938.792236 2783.117920 3025.788330 1848.792847 2222.434814 5078.452148 1907.953735 1302.278564 2371.464355 3327.288574 1580.015381 6898.839844 3763.241211 4014.130371 1856.247314 1792.459473 1998.271484 2557.937256 3401.832031 1712.547729 1310.907715 4952.986328 1401.084229 1913.524292 3319.793701 3458.242188 4054.625488 2864.254883 8973.729492 1275.674316 
Conv_11_param_0 76.972740 20.083639 41.097469 20.581425 25.596035 31.711294 48.106518 8.349316 72.132660 25.577284 26.929005 30.122522 34.123795 30.495943 20.438484 211.413925 45.060974 41.394112 52.462105 30.573227 46.087498 45.042557 11.932519 28.041723 31.408907 72.824600 13.072381 41.144386 14.353952 21.714426 20.153511 37.420254 
Conv_13_param_0 141.621170 191.478928 177.848648 226.994415 184.995575 242.056107 148.854294 206.317642 225.843567 188.668762 203.091461 272.137726 210.823242 206.161026 286.008118 144.341248 
Conv_15_param_0 3475.373779 3857.756104 3333.848633 4230.599121 3510.533203 3068.309326 3093.539062 5308.717773 inf 4630.427734 5836.668457 7710.872070 2993.463867 2634.101807 3129.203125 2876.935303 3615.658447 7272.647461 3607.840332 3009.507080 3169.471436 5646.368164 10546.621094 6933.043945 6146.900879 3059.710938 3356.025879 1975.194946 6447.577637 5269.221191 4560.128906 3486.280518 
Conv_17_param_0 26.039909 44.887871 41.654346 23.287952 31.067944 21.989691 41.017151 61.843060 inf 60.181953 28.773516 17.867624 41.529160 79.407127 62.157291 38.709438 51.483852 15.051105 22.995794 54.081089 54.149014 174.306320 16.543474 14.393737 30.815414 43.994785 44.579391 34.440372 23.863718 21.038397 15.837060 31.384121 
Conv_19_param_0 180.741119 157.281128 183.392517 188.358749 141.800064 182.405334 175.617569 98.025513 221.176239 159.720337 214.742844 151.505112 151.537903 263.548279 245.263962 115.831078 
Conv_21_param_0 9251.592773 7010.380859 3433.682861 4611.480957 4737.430664 4039.864746 9619.253906 4682.094238 2819.913574 inf 4290.791016 2693.830566 4596.313477 4845.397949 8067.747070 5422.487305 4519.238281 8162.663086 3559.948486 10512.821289 3346.117432 4471.723633 7042.575684 2959.218994 2342.015137 4394.087891 5275.872070 5673.905273 11093.082031 inf 5693.124512 5297.124023 
Conv_23_param_0 11.879682 34.248787 41.767811 35.690693 52.699310 29.396048 36.753399 30.110558 93.918732 inf 58.878956 38.684555 56.637508 37.465820 19.911560 19.631670 58.669010 20.138744 43.192429 11.621970 33.006870 34.627922 16.510147 26.461340 42.315334 17.597479 28.632542 32.287174 14.802824 inf 18.916544 20.318472 
Conv_25_param_0 162.435211 153.519821 140.331665 198.462326 177.000412 171.346008 296.373352 166.623276 220.259903 178.643341 219.532089 144.798920 189.050461 234.320770 159.136398 115.694229 
Conv_27_param_0 7517.992676 7186.132324 5834.009277 5220.843262 4030.977051 8154.381348 6297.015137 5099.605957 5257.535645 5561.381348 5578.208496 7032.671387 4243.653809 3020.591797 9434.437500 10600.748047 4823.991699 inf 7712.971680 4739.429199 11898.778320 5214.584961 3318.317871 8776.587891 6830.249023 7263.031250 7698.664551 7533.262695 7405.928223 4981.776855 6142.032715 9236.146484 
Conv_29_param_0 49.908409 10.699286 111.976898 18.843422 52.358353 37.662033 20.873831 34.981297 35.957836 26.909988 152.062683 17.593439 32.766308 60.759716 28.634420 22.899778 67.415726 inf 27.382799 48.220577 12.103236 50.188507 49.667274 13.478901 50.415504 16.150423 24.995247 37.074490 16.812271 14.737147 33.613491 29.044134 
Conv_31_param_0 234.290466 347.212799 138.560852 227.720276 164.782791 269.734436 237.448608 229.939957 284.912872 157.612030 294.743256 261.892944 170.065323 244.059067 109.559219 153.335892 
Conv_33_param_0 inf 2508.107910 6276.225586 7015.795898 9949.223633 3954.330811 4068.283203 4274.318359 6384.560059 5925.756836 2216.406738 6286.939453 2424.076904 7350.768066 13989.597656 8493.735352 6761.902344 10012.723633 3267.271240 8689.946289 4381.693848 4562.137695 5783.324219 11181.181641 21433.441406 8514.254883 16722.136719 5431.840332 14596.956055 8901.294922 12875.500977 4579.370117 
Conv_35_param_0 inf 122.664673 43.922863 49.619164 19.722080 77.649948 59.230549 68.660660 25.176891 39.616726 85.685440 24.664654 125.099205 116.590904 23.910803 49.622433 88.502396 29.996090 36.248016 75.799408 49.463764 41.701523 100.347733 27.948547 13.798757 83.977203 25.304306 74.416809 18.081812 51.298901 43.973602 31.548204 
Conv_37_param_0 298.687714 377.299530 279.794556 159.931442 237.081894 344.308197 332.446869 333.445465 406.821960 230.867706 279.248444 286.058075 329.914948 303.614502 269.981689 341.637146 330.553650 334.375427 336.817322 438.978455 347.387970 342.720184 388.019897 298.831512 297.112152 273.226593 467.993378 330.263947 245.308212 274.083618 324.486145 321.808655 
Conv_38_param_0 2878.847168 4744.327148 4365.778809 2433.119629 10180.316406 3054.721680 5798.163086 2783.569580 1997.599609 3104.116699 2036.347778 3215.727051 3157.622803 1753.575684 3930.517334 4009.772217 3427.165771 2802.265869 5396.072266 3489.254395 5695.105469 3442.609375 6121.479004 2994.555176 9808.018555 4701.333008 3257.734619 2041.301758 4187.390625 7445.573242 5444.395508 2330.124268 3788.585449 8481.449219 3605.690430 4744.041504 4478.305176 3265.610840 3799.051270 1491.361450 3065.073242 2491.976318 2458.730469 3672.090820 1271.835205 2688.577881 5134.657715 6563.805664 4916.912598 4971.344727 2932.193359 3149.518066 106134936302355994378240.000000 2779.435791 2819.446289 2232.582031 3648.230225 2715.773193 inf 2905.527588 3932.926514 inf 5692.167480 2829.372803 2546.251221 6447.332520 3979.574951 10132.322266 2977.695801 4522.978027 3420.387451 17790870157787136.000000 2804.520508 2711.196045 4255.115234 2766.120361 5140.672852 3503.847656 2845.159424 7502.060059 4468.832031 1279.719727 5743.592285 2793.907471 2186.324219 4224.070312 4913.410645 4629.328613 2414.876465 2555.306396 1512.482666 3259.780518 2209.321533 3977.179688 2553.865723 2151.963867 1559.734619 2733.371094 4196.052246 4826.677246 5002.918457 5496.611328 3427.918945 3493.096191 2702.402100 7105.166504 4432.533203 inf inf 5314.139160 1926.146484 3216.187012 1602.750977 1954.696289 3816.381348 1346.747314 5292.767578 4403.480957 6836.182129 2673.162354 4247.225586 2263.462646 1683.815430 7871.560547 9430.148438 3893.183350 3764.241699 2901.843262 
Conv_40_param_0 117.742073 24.852720 50.662960 41.434940 13.190683 24.602119 32.156418 40.699982 93.990288 36.487854 25.792549 57.846653 37.868996 44.044956 68.644821 20.119987 29.006969 62.231533 20.323748 46.128628 16.968845 57.616253 15.539655 41.170135 26.435539 28.203022 73.956154 65.259338 24.428593 21.367125 78.125084 86.973801 40.885918 28.882704 51.888451 18.424078 29.137222 29.769979 224.580536 56.772736 28.187817 110.134415 48.389820 70.148834 74.176544 46.653061 25.890831 21.315443 93.766411 35.041569 42.370159 59.134693 63985220468639119966208.000000 70.248901 39.363121 124.198479 21.991066 37.022251 inf 33.371807 27.690836 inf 25.061243 31.114553 38.907688 24.788208 63.324406 9.820780 40.533806 20.228783 40.518074 16536654881751040.000000 60.649582 86.402794 22.272966 68.505638 30.647522 38.997841 33.161957 18.486195 28.360636 58.237503 26.915907 230.332077 43.676128 24.485727 31.869505 40.576508 60.915359 76.650658 51.840023 46.420868 51.038048 25.246624 118.620232 116.011726 66.181274 81.935806 32.717674 148.429260 20.603306 28.887072 28.426817 31.868874 37.086849 37.038914 41.220856 inf inf 30.076803 57.242432 46.168255 39.782608 61.518497 23.715378 28.511868 25.087631 26.567524 15.251182 37.242767 34.141426 57.431774 61.019806 27.980919 15.638464 44.693737 26.273632 32.517242 
Conv_42_param_0 250.705765 334.325714 357.015717 331.541290 415.019501 458.222290 366.501740 309.480377 253.945908 303.391174 315.824585 374.492401 368.310760 231.266159 338.126831 321.491089 358.565186 392.514130 373.257751 269.583313 365.705719 451.186188 364.682129 297.594025 217.471878 330.390747 287.008789 299.496246 402.789642 378.470154 312.307892 293.253632 
Conv_43_param_0 5719.821289 2196.239990 3904.177246 inf 4248.315430 4818.632812 inf inf 5312.498535 2325.349609 4484.427246 3036.510010 4910.186523 3868.200195 4366.422363 3722.987061 5487.556641 5459.327637 5425.392578 3257.638184 4121.515137 3959.340820 3813.161377 3402.621094 inf 3185.800537 5946.405762 6425.923828 2810.257812 5502.134277 3049.774414 5126.613281 2776.018799 2132.192383 7306.084961 3289.917725 4676.857422 inf 1779.278442 9741.315430 5466.725098 5563.379395 6481.759277 1752.460571 4618.219238 3234.780518 8661.847656 4674.235352 3839.004883 4046.185547 4147.853516 4197.653809 3703.553467 3556.685059 4427.675293 inf 3602.456787 3041.344971 3581.518799 4467.456055 3361.391846 3841.562256 5261.795410 4453.735840 3180.120850 4638.041992 2237.455566 8522.510742 4057.140381 2788.932373 3527.885986 3769.729492 3354.607910 4785.375488 3156.006836 inf 2904.502686 2773.710449 10508.112305 4830.581055 2704.991455 3737.084961 3222.924805 3167.910156 3090.084229 3239.614746 4514.986816 10771.437500 2889.504639 inf 3326.225830 inf 3897.045410 4105.218262 5806.881836 2989.007324 4496.479980 inf 2702.349609 4912.279785 4389.660156 6502.262207 5654.563965 2398.777344 5375.968750 3750.456787 4621.638184 4864.046875 4723.373047 10983.031250 4665.425781 3537.373779 8100.555664 4178.729980 3387.254639 4390.997559 2577.244629 3442.960205 5251.271973 2700.079346 6748.835938 2881.156738 3261.026123 3453.665039 4965.846680 2293.357422 3318.178955 2449.219727 
Conv_45_param_0 25.210159 40.099720 21.482861 inf 61.262215 79.408195 inf inf 26.676188 40.422577 40.764297 39.033352 52.933834 24.054586 18.521141 58.176506 46.585300 21.254875 13.920458 50.721245 85.218910 33.055080 15.289069 27.774597 inf 32.479607 14.798810 58.058315 107.988800 30.610319 43.540016 28.440235 52.268749 82.680504 14.798553 60.064079 28.957468 inf 47.168827 15.290299 25.519247 30.688068 19.004999 32.967640 19.992897 31.911253 37.401333 67.398552 151.525772 33.378433 56.668159 28.095585 38.024128 26.372507 34.041805 inf 25.900970 134.923233 25.058552 18.291887 32.951450 27.762461 17.270510 44.063332 30.156099 27.560183 61.831085 37.310562 175.930801 50.835949 88.858215 22.031298 36.498768 44.428658 79.778145 inf 39.242962 69.957840 34.845524 25.483135 75.509224 53.471783 65.019737 43.422005 16.310722 170.580688 29.715702 36.294201 85.490036 inf 71.351044 inf 38.678337 42.687813 14.035552 32.695175 21.197098 inf 50.647495 16.182156 68.794159 36.503414 26.151932 55.685047 17.587275 48.377575 32.345997 22.891535 25.018459 17.180059 50.248619 37.165447 17.573790 32.889252 32.628860 27.334202 87.532524 49.814663 19.065992 31.177732 25.129223 56.110729 26.918003 19.652817 23.025112 62.519093 15.406032 55.209671 
Conv_47_param_0 208.444000 364.574493 319.249481 331.666290 215.614792 235.983246 244.656052 378.958466 250.604797 239.891174 233.013367 272.054169 313.647705 409.933411 216.676575 252.063828 332.450287 291.390717 253.375519 347.553436 259.124573 357.063965 378.058197 230.074753 307.769562 258.560547 513.041748 254.049515 324.888641 256.221619 351.807098 312.720215 
Conv_49_param_0 6342.014648 156807897022464.000000 4200.427734 4081.167480 3693.821533 5603.462402 4512.813477 3781.354736 4033.378174 6622.144531 4877.625000 5013.735352 3810.216553 2750.440918 3013.914307 4592.176270 5352.865723 inf 5814.860352 3861.921631 3679.762939 3094.504639 6544.969727 3607.851807 5052.291016 7486.105957 6175.240723 8881.816406 6911.036621 4680.521484 10380.817383 inf 4375.075195 5138.052246 8519.664062 inf inf 6664.705078 2978.698486 5538.673340 9944.845703 3371.787109 4659.335938 3861.677246 inf 9166.288086 7132.662109 4808.941406 5574.259766 inf 6646.392090 3716.923096 5519.994141 5967.247559 5328.355469 6539.372070 11575.073242 inf 7540.531250 3863.218750 11244.456055 inf 5038.847656 5783.078125 inf 9010.916016 5676.094727 7710.694824 inf 5386.220703 3896.599121 5380.501953 3616.527588 7341.965332 6780.077148 4235.155762 2726.335693 4448.083496 4880.288086 5045.751465 3376.985352 5994.928711 4372.886719 5327.867676 5648.846680 3334.005859 4135.734863 10126.991211 2679.544189 9726.072266 4475.543945 4146.354980 7573.585449 4836.124512 11838.710938 8142.641602 4409.761230 4455.969238 3677.406250 4596.673340 4851.286621 4995.492676 3729.777344 8100.269043 5202.963379 6452.953125 3552.292236 5262.939941 3445.513184 inf 2854.027344 18509.152344 4624.933105 4768.635742 inf 5596.939453 8438.066406 inf 5429.987793 inf inf 5407.349121 3791.722168 inf 4154.271973 3905.231445 4096.020996 9285.931641 
Conv_51_param_0 91.185005 10976478887936.000000 217.560944 74.623413 30.696012 39.477978 29.926018 37.872486 33.274879 18.740969 24.549938 25.072906 126.388954 58.343391 25.729525 43.449211 41.567200 inf 20.982147 59.277863 68.296967 51.405510 12.661220 28.607939 56.792953 21.102743 19.283014 21.022800 17.286749 21.129406 97.980927 inf 25.916363 28.781612 30.413654 inf inf 28.931501 42.466507 36.388542 13.434543 43.700924 64.194946 57.701294 inf 19.560270 76.554611 24.485281 26.325964 inf 23.358700 31.752640 34.907806 12.539599 76.813568 37.457233 25.465908 inf 17.751694 21.629601 22.262115 inf 66.488869 19.132931 inf 16.575521 42.861103 20.704660 inf 22.557413 131.462219 30.491163 45.948547 29.772913 48.088543 26.149160 51.347034 20.482239 39.903545 20.448828 25.231243 52.478603 62.519245 32.386520 61.991508 71.201935 70.262871 52.042336 45.700703 109.413849 49.443287 25.577429 23.855473 46.612186 15.702115 24.857624 27.894146 36.245430 27.037962 34.188488 22.471701 48.309196 19.352047 18.545918 39.273052 28.946732 49.637959 11.425436 53.041298 inf 54.147717 31.371387 38.431602 24.509727 inf 25.026310 14.393232 inf 67.525795 inf inf 22.198692 29.134045 inf 25.420097 44.177147 33.069298 22.550398 
Conv_53_param_0 275.352539 226.339218 201.860748 333.506775 292.558197 271.111206 228.909210 231.025101 242.132339 187.012299 200.325104 195.724792 255.442078 240.097473 235.756760 182.441925 230.256622 197.822922 235.533783 300.654327 258.377716 282.832092 250.062897 237.854111 196.574936 243.720520 274.909210 316.308472 269.077393 319.502655 204.500961 236.860931 
Conv_55_param_0 5811.934570 inf 6058.300293 10527.208008 4967.304688 8052.361328 6888.037598 inf inf 6994.196777 3826.503906 6771.430176 10716.825195 6371.152832 633837238256583395211451826176.000000 9099.153320 8754.421875 4236.424805 4635.557129 8019.259277 5524.447754 5079.716309 8400.193359 inf inf 5529.966309 11007.625000 inf 6159.181152 4792.625488 4927.275879 4029.221436 inf 11327.040039 10619.247070 5589.521973 4183.164551 8548.780273 inf 6087.160156 7135.679199 7928.814941 5739.362305 5563.872070 10696.999023 inf 5840.609375 5208.083984 7626.248535 6431.485352 4823.984375 6525.895020 5977.829102 inf 7827.867676 7058.431641 5955.691406 17020.513672 5922.679688 8013.840820 4394.033691 inf 8433.859375 8751.955078 inf inf 7562.517578 7006.052246 inf 6818.692871 inf 7147.093262 8330.654297 6441.406250 4115.275391 5078.842773 11246.301758 7389.395996 10451.732422 9742.827148 6992.374023 9458.420898 2308.517578 8357.028320 5004.364258 7585.060059 inf inf inf 5295.085938 10596.165039 inf inf 5745.732422 7984.572754 5555.712891 5865.419434 inf inf 5273.181641 6849.777832 6905.240234 7116.636230 inf 7015.714844 inf 6648.257812 7577.063477 4007.787598 4456.735840 inf 10186.801758 inf 10611.228516 10268.220703 5067.005859 3671.305176 10245.569336 4119.733887 inf 12564.602539 6213.316406 6816.848145 10909.539062 7179.843750 10769.485352 5993.202637 5084.598145 
Conv_57_param_0 16.178148 inf 40.340611 13.763242 62.020821 85.727585 46.148026 inf inf 72.308647 62.101543 67.948448 14.365750 33.896442 52717137089820915978309992448.000000 34.954647 25.769264 50.784836 67.800621 26.648012 38.933037 53.110645 17.605431 inf inf 50.984486 27.007210 inf 87.833435 34.268284 25.195471 92.326775 inf 15.580254 552.593079 27.592632 24.132206 337.197357 inf 31.204130 104.205467 50.765236 35.498528 46.453583 16.086140 inf 34.353329 50.655445 49.642189 20.175306 33.626900 26.263943 17.989828 inf 25.581003 136.468201 26.692862 27.408403 43.307285 18.730972 59.078831 inf 21.588520 24.294699 inf inf 117.898743 151.913422 inf 35.997128 inf 35.468872 28.102726 49.042755 95.660713 41.735294 27.100159 71.912537 392.646881 79.384926 54.119198 16.085548 44.975033 19.699406 36.228310 29.889849 inf inf inf 28.882370 12.149566 inf inf 35.914322 39.441132 31.059502 33.668720 inf inf 30.474888 34.443336 80.311821 22.260834 inf 32.374599 inf 38.312862 31.445469 47.978573 37.746597 inf 11.668841 inf 32.954987 23.733538 71.699219 73.103119 54.967987 46.961369 inf 22.544874 32.102760 28.798498 22.091206 15.627040 17.644163 13.698537 27.843430 
Conv_59_param_0 285.786591 240.163132 214.292847 254.461914 240.818008 209.568695 298.406860 280.802246 352.643127 285.075073 181.800232 513.558960 209.478485 268.236755 411.143005 247.378937 249.016815 240.761536 308.405487 326.033600 304.673615 251.490906 407.287933 218.180649 276.536926 206.603745 149.271591 581.883789 251.319626 218.654526 185.846451 306.266174 
Conv_61_param_0 5567.184570 6757.895020 6104.426270 8107.562500 4572.166504 inf inf inf 5845.080566 6537.308105 6537.353027 inf inf 13004.129883 inf 12176.414062 inf 5957.005859 9211.571289 inf inf inf 8316.172852 8023.505859 8665.389648 6026.036133 inf 7841.152344 inf inf inf 6268.478516 inf 7156.043945 11351.609375 7318.658691 inf inf 7392.407227 15577.784180 6471.187500 6149.054199 4146.040039 6672.367188 5818.473633 inf 8893.156250 12654.130859 7739.587402 12788.525391 8601.133789 3945.403320 6188.967773 10450.700195 8786.017578 inf 7925.562988 inf inf inf 7887.652832 6692.436035 4928.956055 6432.215332 13452.483398 inf 7719.551270 inf 12041.384766 7983.016113 9925.223633 7838.901367 7410.729980 18385.316406 6009.321289 9303.673828 14850.728516 6391.307129 6240.842285 9984.338867 6694.817383 5055.364746 inf 7010.266113 inf 6455.996582 inf inf inf 4673.284180 6203.238770 7135.687988 14909.265625 7676.698242 7919.659668 inf 5930.147949 4561.160156 4776.567871 9640.527344 inf 4225.866699 8109.445801 inf 4949.500977 inf inf 5958.845703 inf 7934.371094 inf 10361.296875 inf inf 11043.462891 6695.490234 inf 9595.336914 5742.206055 5758.416992 inf inf inf inf 8281.590820 5330.959961 inf inf 
Conv_63_param_0 25.824551 51.920193 45.746418 23.279825 33.979397 inf inf inf 67.771721 44.809250 153.301849 inf inf 26.224957 inf 13.622703 inf 17.703581 57.242901 inf inf inf 38.153755 23.870396 46.132504 20.146948 inf 44.823277 inf inf inf 118.799759 inf 89.833191 64.133461 27.040194 inf inf 41.843826 24.656477 77.927284 92.292351 237.607483 58.679173 21.152933 inf 28.025991 12.831667 21.327059 18.000568 16.886557 58.475685 31.733377 17.713539 25.368549 inf 74.158958 inf inf inf 36.397839 27.895061 68.382767 11.306955 12.812395 inf 25.072159 inf 23.240351 37.582256 29.291779 59.959171 93.161751 16.944098 75.985359 40.674923 21.274652 23.132154 52.075920 17.362408 37.173378 70.267662 inf 64.164108 inf 29.771160 inf inf inf 36.199318 39.260883 32.136143 18.291862 24.309443 22.221931 inf 72.240822 52.987606 33.318615 31.065350 inf 30.894089 13.468442 inf 20.502333 inf inf 37.100124 inf 17.933052 inf 50.475670 inf inf 23.764708 26.155771 inf 37.170574 46.997211 74.873611 inf inf inf inf 27.816200 116.289383 inf inf 
Conv_65_param_0 226.364517 243.629623 154.255127 386.743286 250.298935 184.311066 219.832886 190.894913 222.698776 244.831390 289.377869 271.659515 279.346161 208.866592 354.930023 187.529984 206.834457 175.712723 170.145096 203.828918 206.407318 245.456665 223.433044 343.536804 238.299850 146.958542 221.779449 197.887436 173.541840 221.382034 225.755035 224.086395 
Conv_67_param_0 inf 8547.727539 inf inf inf 8501.951172 7897.110840 12817.631836 10725.992188 inf 10185.448242 4145.278320 6239.259277 7770.333008 7297.592773 9392.084961 13266.946289 6353.177734 5555.446289 7302.263184 inf inf 6986.132324 8638.004883 inf inf 10705.759766 10694.153320 11166.521484 inf 8464.541016 7854.417969 10531.654297 6533.328613 11320.638672 inf 15020.633789 9027.058594 8635.005859 6817.694824 12518.524414 inf inf 10404.474609 6792.038086 5680.674805 9758.510742 inf inf 8721.848633 inf inf 10189.212891 5344.664551 inf 5915.895508 inf 16709.591797 inf 8889.025391 7426.222168 7566.041016 5774.535156 587933.937500 7315.015137 8558.226562 8532.929688 inf 7879.434570 7707.825195 inf 7088.933105 inf 7996.669922 inf inf 9784.065430 10352.046875 inf 9883.725586 10722.957031 9629.096680 10234.838867 5407.083008 inf 6710.467773 inf inf 6810.192383 inf 10954.702148 inf inf 7422.387207 inf 8873.535156 inf 25127.439453 6393.645996 8397.689453 7825.192383 5384.500488 6849.770020 6494.169922 12660.439453 8785.456055 4716.882812 inf inf inf 7046.508789 7561.675293 13351.568359 7002.393555 8722.371094 8031.763672 6557.168945 5289.685059 inf inf inf 14183.874023 5286.378418 inf inf 9626.613281 inf 5678.769531 
Conv_69_param_0 inf 72.504929 inf inf inf 54.207790 30.486898 11.481952 50.740311 inf 42.005268 102.789352 36.558418 37.218868 80.136650 46.719036 16.818279 23.987614 87.795860 64.692101 inf inf 14.192987 16.523859 inf inf 12.173607 34.762138 19.799610 inf 22.978199 115.485542 22.735298 41.754246 27.552441 inf 14.746163 38.904316 64.748268 47.417675 17.982212 inf inf 35.556320 23.575481 56.187149 102.133316 inf inf 41.937313 inf inf 45.421070 44.411636 inf 172.103180 inf 27.425014 inf 19.493073 72.902496 30.376307 80.468735 406128.656250 69.356667 78.973976 82.148788 inf 21.786875 64.734100 inf 31.260900 inf 23.313828 inf inf 40.508087 26.761185 inf 21.248148 626.080200 16.534182 20.220575 34.809441 inf 30.741152 inf inf 29.733042 inf 60.347614 inf inf 22.849247 inf 28.418941 inf 7.485748 34.131191 38.344109 308.976196 44.258408 47.407299 18.954994 92.977730 24.949577 10.465110 inf inf inf 81.690269 100.711372 19.564867 50.898830 17.664089 44.696167 16.436247 47.855770 inf inf inf 10.951002 39.635216 inf inf 29.545891 inf 44.557152 
Conv_71_param_0 210.116257 120.067085 255.905029 259.199310 124.451294 192.461594 222.267822 205.516418 232.511459 192.223389 228.669785 211.224182 275.943176 156.744156 274.232483 302.286163 249.743622 161.574432 374.178131 335.464355 252.520233 187.076477 201.652588 311.852631 214.238312 223.263123 524.854431 317.580841 162.701904 309.898315 215.280090 235.605377 
Conv_73_param_0 6403.187988 7598.386230 6075.159180 6297.553711 16760.869141 6678.520996 4629.316406 4805.366699 7861.843262 8749.773438 5763.900879 12116.612305 10459.868164 6803.122070 7277.098145 6908.020020 10797.846680 8587.929688 7907.899414 3203.667480 3643.067627 15588.931641 7999.272461 6236.703125 9721.064453 12616.388672 11879.148438 13029.720703 4643.077148 9063.549805 5690.259277 9571.744141 11241.731445 9643.557617 13298.062500 11290.407227 7667.714355 8870.269531 10400.374023 8359.983398 8692.002930 6827.947266 8752.675781 6443.174805 3506.209473 7185.198730 4311.849609 7593.599121 4942.134277 9970.506836 7485.829590 12110.473633 8925.952148 5958.527832 4518.883789 6842.570312 3529.155518 8689.194336 10494.159180 14463.805664 9925.016602 4450.929199 7310.510742 9864.683594 
Conv_75_param_0 29.227646 50.089836 29.997099 42.074974 15.032580 38.798538 33.072769 42.475468 33.501057 28.792263 27.075254 14.878491 18.170595 25.823231 23.798647 25.234922 11.416770 13.040511 19.555359 56.568680 52.489399 10.447300 20.948694 63.864571 15.932946 23.670225 18.683115 16.102909 39.432079 17.735308 34.834370 17.641571 19.777426 20.482239 23.807423 22.086592 23.197784 23.121445 17.410442 20.395449 34.297371 19.220888 17.785332 29.274441 43.666988 50.458538 55.940269 20.406622 45.628586 28.200146 22.555393 13.593104 27.483057 26.990313 49.078957 14.862894 61.420967 16.682806 36.597355 24.566971 14.371391 20.410959 29.893656 20.405640 
Conv_77_param_0 268.626343 344.055511 411.928741 622.652710 316.318115 447.292114 377.136139 265.669556 464.815826 397.287445 364.277100 350.543274 432.298431 549.512939 385.235687 379.212341 
Conv_80_param_0 1285.953857 1373.475464 1238.754395 1614.076416 1214.267212 1525.054932 968.547485 1287.618408 1232.497681 1198.083130 1146.617676 1053.925903 1068.037231 1149.757202 1249.545776 1206.119141 1324.742065 1260.685303 1613.376709 961.062561 1313.181763 1225.557373 1844.826416 1134.776245 1468.081421 1190.773926 1275.706909 1253.965698 1737.232544 1410.387329 1428.384888 1045.623047 
Conv_84_param_0 inf 1492.118042 1814.343628 1996.662720 inf 2011.441528 1380.270508 1736.345825 2285.559814 1886.478638 inf inf inf 2682.521240 2184.988281 1972.302490 1753.947388 1756.831543 inf inf 1986.355469 inf 2180.778076 2221.116943 1954.814453 inf inf 1561.665405 1719.114136 inf inf 2317.404541 
Gemm_89_param_0 1219.220703 1064.860596 
Conv_0 inf 
Conv_2 inf 
Conv_4 inf 
Conv_6 inf 
Conv_8 inf 
Conv_9 inf 
Conv_11 inf 
Conv_13 inf 
Conv_15 inf 
Conv_17 inf 
Conv_19 inf 
Conv_21 inf 
Conv_23 inf 
Conv_25 inf 
Conv_27 inf 
Conv_29 inf 
Conv_31 inf 
Conv_33 inf 
Conv_35 inf 
Conv_37 inf 
Conv_38 inf 
Conv_40 inf 
Conv_42 inf 
Conv_43 inf 
Conv_45 inf 
Conv_47 inf 
Conv_49 inf 
Conv_51 inf 
Conv_53 inf 
Conv_55 inf 
Conv_57 inf 
Conv_59 inf 
Conv_61 inf 
Conv_63 inf 
Conv_65 inf 
Conv_67 inf 
Conv_69 inf 
Conv_71 inf 
Conv_73 inf 
Conv_75 inf 
Conv_77 inf 
Conv_80 inf 
Conv_84 inf 
Gemm_89 inf 
